[PAD]
[UNK]
[CLS]
[SEP]
[MASK]
a
b
c
d
e
f
g
h
i
j
k
l
m
n
o
p
q
r
s
t
u
v
w
x
y
z
##p
##a
##t
##r
##g
##e
##o
##n
##u
##s
##i
##y
##c
##k
##h
##l
##b
##f
##m
##d
##w
##v
##j
##z
##x
##q
##an
sa
##ya
saya
##ang
##as
##ar
##asa
##en
##at
rasa
##ah
##ak
##er
##al
se
##tu
dan
##in
yang
##ik
##id
##ap
tid
tidak
##am
di
ke
te
in
##da
##un
##eng
##is
un
##ih
untu
##ir
untuk
##ti
ak
deng
##uk
ba
##angat
##it
##ari
dengan
##il
sangat
bah
##ing
an
##wa
ini
##ur
##ga
le
##gi
##lah
##ad
ben
be
##us
sep
##ta
itu
##pa
bahwa
##anya
##erti
or
seperti
##ul
##ek
orang
benar
kar
##tap
##sa
##ena
per
karena
##uat
##ent
tetap
##ung
tetapi
akan
##on
##ika
tah
##ut
##alam
har
##adi
sen
asa
dari
##mu
leb
##ri
anda
mer
##ara
lebih
##im
##eka
mereka
ing
##um
sed
##isa
jadi
pa
dalam
##uh
##entang
bisa
la
tentang
##up
##mb
##alu
lak
hal
sek
##ana
ter
##apa
tahu
ket
pada
buat
telah
mil
##el
hari
laku
ketika
ingin
ata
atau
hanya
milik
dia
##es
##mp
diri
baik
##ja
##alah
##or
##ai
apa
bi
##ali
dap
##os
##ata
pik
dapat
pikir
##ati
ada
ker
aku
##ikit
sedikit
ad
semu
##asi
semua
harus
##le
##man
##ud
ber
beb
##uka
##gu
##asih
adalah
banya
banyak
##ama
baga
##uar
kata
##iri
sam
##ami
saat
##diri
##ita
sendiri
##ihat
lihat
##hir
ses
akhir
##arang
##ca
##erapa
beberapa
##lalu
hid
##ol
ju
bel
suka
hidup
bagi
kel
##kan
cara
senang
ti
si
al
##utu
##ba
##pada
##inta
##uatu
sekarang
##kin
lain
mung
mak
mungkin
kec
pan
mul
jika
##si
sama
wak
masih
##ot
##amp
tak
waktu
kami
mulai
kerja
##ok
satu
##imana
bagaimana
anak
sesuatu
ag
pun
##leh
biasa
##mpat
sak
jal
##ong
cinta
##em
juga
tu
##od
seh
##ep
cuk
##gal
yak
yakin
cukup
oleh
lagi
sakit
jalan
ting
pergi
lama
masa
ja
ser
##ia
ma
bar
takut
tul
co
salah
beri
##tr
tan
hati
sem
bur
##udah
teman
en
##uas
##ind
agak
luar
tahun
##wat
buk
##ingga
belum
##gitu
begitu
sehingga
temu
##ci
##end
keluar
##tas
##adang
harap
ka
gun
##ima
baru
ra
##amb
##oh
kepada
##nah
harga
kur
##lu
ban
##eh
pernah
terlalu
pr
##enang
kemb
tulis
bahkan
##om
##arah
tempat
coba
terima
tiap
man
##et
nya
##mat
kita
##ed
kes
saja
olah
perlu
selalu
bang
kecil
bes
##og
tanya
##ub
kembali
kali
kadang
##di
lalu
pas
aneh
##ab
ingat
marah
baha
benci
sel
sedih
##osi
kon
##cara
bagai
guna
mana
tinggal
buruk
besar
##gia
makan
sin
kurang
##ewa
##re
kasih
##caya
percaya
tanpa
bantu
puas
##tik
masalah
da
##ua
malu
sudah
baca
kesal
rum
##jang
ap
semangat
##gung
##jar
##utus
##tama
##gg
atas
pri
##akah
putus
gel
dengar
##ilang
bl
mes
rumah
kh
bicara
tang
##ter
##enuh
ar
terus
had
ming
minggu
malam
mas
##ki
jauh
pal
tidur
sini
tekan
##ib
##ira
panjang
##utuh
butuh
bod
##mbil
##emb
##jut
seb
bodoh
##isi
dua
jel
##eg
daripada
bahagia
##tim
##bu
mus
meski
##tif
##enting
is
penting
##imp
cer
##op
hilang
##itar
##ost
duk
lu
em
dukung
sana
dep
##ont
ajar
##isah
sekitar
gang
##dar
ragu
ambil
##tis
kuat
kemu
bukan
ganggu
kemudi
hor
##atang
menang
##ala
hadap
meng
##pai
##tt
sekali
hormat
##sp
##kat
sampai
apakah
dun
##eb
##ng
has
tun
sadar
bangun
dunia
tar
kecewa
##su
bul
datang
##ra
blog
mengapa
##ju
##mbut
lelah
nyaman
tamp
paling
kemudian
ru
str
sele
##ampir
ibu
penuh
##sai
hen
##buh
ind
##ulit
selesai
##yang
ga
htt
http
rind
hasil
pak
rindu
depan
keluarga
pasti
hampir
##na
##itas
##uli
siapa
aman
re
betap
henti
betapa
pil
buku
kep
can
lang
dud
hub
##api
bulan
duduk
##awat
hubung
wan
biar
main
kos
sing
##tar
wanita
sedang
khawat
khawatir
emosi
ub
##osting
hab
##cu
bu
kejut
lewat
alami
habis
sik
##anc
ped
##anta
pilih
kosong
as
jam
mata
teng
stres
su
##onal
sering
pria
mati
##yi
gelisah
indah
mudah
##aha
keras
ubah
tapi
kepala
##cam
peduli
ken
nik
masuk
pertama
gad
gadis
##olah
##asar
##ibur
cantik
lembut
sekolah
tarik
lucu
pakai
bing
pin
tuh
##ref
tuhan
href
me
tangan
ger
pah
ten
##rus
jelas
ab
mur
##jak
angg
##uruh
pagi
tiba
kom
alas
ik
kam
##atif
bingung
bal
ko
mo
enak
kira
tahan
simp
manis
seluruh
##aj
##ip
tentu
sulit
##juk
daya
##walah
##yah
kewalah
tubuh
nyata
kewalahan
hanc
us
panas
hancur
dek
bawa
pul
##ingin
nikmat
de
utama
par
##ina
untung
##uru
##ump
singgung
ri
tur
##angk
situ
dingin
##wan
kelas
tua
min
##ger
##amun
ener
bos
cari
cem
fil
tol
##ambar
##onton
er
minta
rend
##esi
th
tonton
ek
gambar
kati
sia
sebut
tunjuk
kak
lari
##gum
musim
ikut
cemas
go
tenang
##af
laki
tuju
tampak
gemb
##ch
keri
rendah
namun
sur
punya
##ug
dekat
gembira
lesu
id
##ji
tengah
bosan
ta
##tah
##ani
segal
ant
segala
sesal
alam
ro
##wah
##and
##akat
##mpur
kagum
usaha
lat
buru
mu
tamb
##tak
##wal
kons
santa
ram
neg
ren
##atah
##entara
murah
##ris
emosional
tolak
gug
sy
ul
##cang
belak
##trasi
tambah
men
put
kenal
frus
##jur
##ila
film
belakang
cep
ji
waj
##tia
##ukur
sementara
syukur
cepat
barang
fot
pang
tim
##badi
setia
pribadi
frustrasi
gr
ku
kend
pes
##li
##tur
bawah
##cau
erti
tung
perh
abai
dam
##gus
sepi
siap
maks
##oduk
ramah
perhati
war
##ck
##yak
##itik
jujur
macam
kot
suatu
tek
beda
lagu
pro
##mpurna
hina
puk
rus
##ank
sempurna
beban
produk
cerita
santai
pukul
der
seng
sebal
maksud
gan
##ten
##go
##omb
sab
##atuh
##engk
tinggi
bangga
##spir
latih
op
##gas
##jung
##yar
##orm
jelek
kaki
antara
gugup
bat
buka
mun
##uan
##fa
berani
ruang
situasi
##ekan
awal
bun
##ensi
inspir
##isik
sehat
pop
##cana
tep
##wab
jawab
pintar
foto
hibur
##mum
##ebat
tunggu
sar
bagus
lem
makin
wajah
inspirasi
do
kre
pel
sp
uang
alih
capa
dor
##dang
pot
posi
st
tind
umum
##bang
ang
bebas
pangg
positif
gila
sis
seger
bayi
##usi
berapa
jaga
pulang
damai
segera
mel
##ses
kacau
siksa
capai
dorong
posting
##tang
sayang
juang
guncang
air
bo
cang
fak
kalah
kem
##ental
paham
ego
jatuh
luas
ob
##das
sejak
##tung
##ambat
arti
energi
rencana
ulang
kotor
tindak
huk
hebat
res
##yan
semb
##uler
beli
##timewa
istimewa
memp
rusak
canggung
hukum
lan
##ogi
##ahat
berat
balik
im
rent
##tri
maka
##sia
kamar
memposting
cur
para
##pas
##ingk
##entar
bahaya
derita
##resi
samp
##ampu
egois
rentan
am
bus
bakat
suk
sepenuh
lebar
tingkat
cerdas
fakta
luka
pe
tr
##pon
##ow
##jik
##ano
maaf
ide
negara
kendali
lanjut
ch
cemb
gem
sk
tum
titik
ya
##jam
##alang
sempat
##bab
kaya
rupa
tepat
##yum
the
populer
kreatif
ayah
jen
jum
kasar
##gan
##sara
tele
##ambut
turun
panggil
cemburu
kun
mem
rambut
usia
##tuh
##amat
senyum
keren
##ola
##ode
sengsara
sabar
##tor
##gar
sebab
##idasi
lepas
serakah
engg
warna
sukses
enggan
mampu
tutu
musik
minum
suram
lo
na
pi
##gang
##ian
##car
##kadang
intim
bayang
##ulu
terkadang
tip
tiga
komp
##faat
tutup
amp
libur
manfaat
isol
tampil
suara
suami
parano
muda
##tan
##la
##ber
##dan
##tiv
##impi
komentar
eksp
isolasi
he
##kap
##bil
##ftar
daftar
gerak
jijik
telepon
fok
fisik
hi
jan
nil
patah
##kah
fokus
dem
hadi
sisi
##emp
##uali
##sung
##ers
##usia
##paya
perut
sentuh
layak
##olis
serang
band
manusia
lupa
anggap
simpat
melank
tumbuh
nilai
hadiah
ilah
nama
om
sisa
##lik
lega
kecuali
entah
kasihan
##timis
optimis
curi
intimidasi
paranoid
ilahi
fa
kir
lap
mimpi
nak
##aja
##me
dis
##udara
tualang
seri
tulus
langsung
melankolis
kulit
nost
pu
pekan
rep
##ig
##algia
ungg
roman
nostalgia
atur
fan
jari
kor
sej
inter
menit
kirim
dulu
rem
##omp
##wel
##akter
##idak
tel
ancam
karakter
##ender
palsu
rewel
buang
grogi
kr
##ll
##zat
kejam
badan
##osial
gaya
pahit
tekad
memang
dasar
ne
tari
##yek
##ww
sambut
##arin
##tuk
pacar
pandang
selamat
masing
##egang
gagal
sikap
nakal
kena
rang
##cul
lezat
##usus
ketidak
panik
tugas
serah
khusus
riah
proyek
busuk
jengk
lingk
pol
sosial
tra
upaya
www
##lin
##jing
##atal
##aksi
##apas
bers
rawat
##ohon
mobil
riang
produktif
lemah
siswa
kemarin
jenis
omong
romantis
jengkel
med
sup
diam
tegang
##ura
##est
agar
pasang
hadir
komun
muncul
bunuh
potong
unggul
gl
guru
lah
suas
##sang
##war
##ve
saudara
seni
halus
##udi
sesat
buah
rangsang
bersih
suasana
jang
li
mar
##ban
##buk
##amil
sela
artis
jangan
cak
cender
hak
norm
somb
##tem
##gik
##ium
##engan
let
lemp
##eksi
tantang
##tastis
arah
kamu
fantastis
cenderung
sombong
br
mal
pen
pind
##ori
##str
##iak
##atis
bahasa
teriak
beront
kelomp
##ibat
energik
goyah
jumlah
letih
pindah
berontak
kelompok
cip
dr
dok
dll
hangat
kan
natal
pegang
##tir
##ov
##nya
##eri
letak
kembang
kota
doa
obat
simpatik
cipta
es
kas
sh
tat
sah
and
peremp
##ore
turut
perempuan
boh
gul
mental
nan
pura
ring
inf
bayar
merah
layan
tawar
korban
lempar
cium
din
ef
hind
matah
pus
rel
so
sub
to
##duk
teb
##ona
kuras
pesta
peluk
artistik
bohong
hindar
matahari
cat
kris
peng
pos
##ge
##gris
##ceh
##ma
sal
##atu
##unyi
pers
inggris
beranta
pros
simpan
batas
samping
ringan
empat
gar
hamil
jahat
lump
lambat
lengan
##rc
##ging
##ikasi
##apan
kejar
##ela
##abat
tanggung
##raf
##angka
sembunyi
nanti
iri
urus
##ie
##yol
##hana
##aruh
leceh
##etak
musuh
tunduk
cakap
tatap
efek
pengaruh
cel
hambat
lind
napas
oh
pisah
##mbang
maju
motiv
gemar
curiga
repot
normal
malas
acara
isi
mis
src
yo
##eo
##iat
##cah
##cik
##jek
##erhana
##alitas
##idik
##itah
anjing
bentuk
##ond
tanda
##endang
reaksi
gantung
naik
remaja
selain
lindung
bak
cu
jud
libat
ot
otak
tam
tendang
##gis
##ey
##ob
##ota
##ff
sepatu
##tawa
karya
##ons
sederhana
terbang
tertawa
adil
##eptis
kab
##ember
istir
##spek
putar
jiwa
skeptis
istirahat
ep
halam
ikat
kol
pohon
rek
rangk
tab
top
##eja
##uj
##uai
##cok
##erika
##iksa
ung
sentim
sesuai
belas
siang
raya
bangk
tengg
pintu
amerika
kunci
motivasi
halaman
lin
lengk
tump
##cap
##kas
periksa
bib
cocok
tanah
surat
ganti
banding
intern
lingkung
tragis
komunitas
dokter
lumpuh
ungkap
sentimental
bin
fl
gen
hit
ny
on
pl
tok
unjung
sedia
sibuk
desa
situs
timbang
lompat
super
glam
judul
budi
cok
fin
mom
naf
rekan
san
sus
ud
uji
##ram
##cing
##ly
##alis
keluh
alir
mandi
olahra
konyol
depresi
dew
serius
sahabat
toko
udara
olahraga
bilang
camp
cua
jar
jer
jeb
jangka
pam
um
ucap
##te
##ans
##aka
##aku
##ilaku
perilaku
##uhur
lawan
langkah
asal
anggota
goyang
img
lahir
glamor
cuaca
jebak
bir
bum
darah
ge
lima
mor
nuan
##get
##oo
##of
##can
##cak
##vor
##era
##inasi
ins
##uter
pantas
serta
semes
kait
##etar
besok
kalian
sinar
khian
gereja
prof
hitam
momen
nuansa
khianat
awat
dind
didik
kenang
lol
luhur
uk
##aa
##ail
##nis
##dai
##tip
kartu
berita
gelap
tangg
pesona
saran
pecah
picik
komputer
ekspresi
favor
##estasi
proses
dinding
favorit
des
huj
po
sum
tadi
##eda
##ce
##her
ania
##eks
kertas
konf
bla
##asaran
negatif
angkat
penasaran
catat
lengkap
dewasa
umur
hujan
aniaya
ah
bis
jur
kal
kisah
ok
sol
##th
##ook
##ka
##dir
##dur
##ash
##ark
##akan
##tual
##intah
bau
sepeda
peri
perintah
seks
belan
saksi
dada
masyar
cuci
ukur
masyarakat
ele
fe
ia
kutu
mari
nyan
of
wa
##if
##erasi
segar
##daya
##iling
##tai
takdir
kontr
##sual
paksa
kencan
boleh
sejati
media
campur
bumi
nyanyi
bola
fr
gab
ha
imbang
kat
kump
lub
rah
##tat
##dak
##und
akal
keliling
baring
bukti
tangkap
rugi
budaya
meja
pesan
bunga
sarkas
sistem
tipu
lapar
disk
desain
kumpul
ir
imp
jend
kapan
mat
ol
renang
sore
##ts
##cita
##ideo
##upu
halo
bijak
kering
sukacita
##ampil
##ogram
konten
asing
##ormasi
kantor
subjek
otot
jendela
mod
nasi
nov
ps
rok
sud
video
##sasi
##ys
##min
##jub
##ansi
tes
##isode
ledak
laut
terampil
jual
istri
target
balas
ekstr
angin
##trib
hitung
janji
posisi
garis
##itahu
bakar
elegan
gabung
sudut
cr
du
gam
han
kari
kop
pung
rata
tw
tas
tot
ver
##ic
##vid
##ikian
##idang
bab
##lahan
perlahan
##rim
seksi
seksual
##elat
pantat
takjub
##oma
gagas
singkat
anggur
putih
putri
resep
sembuh
demikian
sejarah
##line
kasus
episode
bibir
bintang
cokelat
nafas
belanja
sarkastik
punggung
col
den
gig
getar
ikan
idi
luk
ping
pend
sl
tv
##pasi
##ting
##cur
##ceb
##kir
##wi
sambil
##atus
##ator
##tus
inten
##isme
##emat
burung
##isipasi
##egan
cerah
email
blogging
gaun
langit
gera
puluh
meni
gratis
kendara
jumat
demi
informasi
tanggap
##tribusi
idiot
log
pub
rak
sand
wh
##ty
##iv
##lan
##was
##ate
temb
senim
sekal
sial
##otik
mau
tanam
goda
renung
sengaja
sampah
faceb
puji
sanjung
profesi
diskusi
psik
karier
seniman
facebook
aya
bidang
ca
cetak
hut
mah
pad
sop
sump
timp
up
ujung
##tel
##ry
##rasi
##gh
##guh
##luk
##fe
inv
##isten
organ
##ulus
##elam
##jau
##ologi
alat
enam
pres
kontribusi
aroma
nikah
moga
minat
tawan
muak
kucing
mundur
hewan
puisi
persis
tamu
bangkit
tenggelam
internet
semesta
bisnis
jurn
kutuk
intens
sumpah
timpang
acau
aspek
caha
for
hom
jus
pir
rut
sw
stu
web
yes
##tin
##tle
##rat
##ne
##low
##bat
##for
##mi
##men
##du
##zin
##ins
##isti
undang
aktif
##ital
##inga
terap
berkat
mulut
wakil
agama
raih
kursi
##lub
program
kesan
##ograf
luang
balap
##angkal
putra
batu
potensi
trans
kunjung
neur
pusat
jarak
poin
feel
total
sopan
cahaya
bon
bot
car
dewa
izin
jad
jarang
kl
kuk
lir
lok
muka
member
niat
##tasi
##eta
##ual
##ye
##mark
##ving
##anjang
##ase
##arat
##enyak
##erensi
##ikat
##iksi
diber
temp
##ill
peristi
##entasi
##umsi
##ess
##alia
##asia
sesi
alb
make
prak
##omi
kont
tuntu
blogger
asli
taut
kotak
disalah
telinga
kristen
##spektif
nyenyak
online
jangkau
pamer
impi
pendek
tembak
profesional
investasi
yesus
jadwal
lirik
peristiwa
aja
abu
ajak
awas
bung
det
ev
emp
fung
her
krim
lal
lulus
nen
pimp
radi
ramp
risik
ur
##ton
##gun
##nik
##cat
##lo
##ding
##artem
##erah
##all
diet
inti
##ade
##tail
perspektif
##utr
sensasi
terb
bia
dapur
##asional
mantan
pasar
daging
daerah
mesin
emo
langgan
asuh
pulih
##chy
mual
ulas
operasi
spiri
jantung
telanjang
politik
sofa
tebak
celana
lintas
biru
sumber
lubang
rokok
duga
game
kopi
kuku
diberitahu
fungsi
nenek
pimpin
risiko
##artemen
etik
fi
gi
ges
iman
kil
kus
kupu
lun
mohon
pasi
sn
sor
ut
##ph
##rak
##sh
##sana
##fat
##vel
##zz
##angkat
##ard
##erv
set
tempur
teli
univ
##itis
##itter
adegan
pantai
ref
langgar
anggun
simpul
def
wajib
kuda
sabtu
muntah
tepi
chris
tipe
hias
##likasi
new
lingkar
lahan
andal
celaka
kabut
moral
solusi
rahasia
ekstra
versi
organis
album
ajaib
lalai
teliti
univers
bas
bil
cangk
damp
dend
detak
gy
hah
haha
hemat
jah
kiri
kuli
kand
klub
lar
mon
mode
pat
por
pip
patuh
pola
reng
roh
ringk
sm
sta
##tal
##ee
##oi
##ood
##uang
##son
##yut
##hluk
##lus
##land
##bel
sap
##yal
##ens
##ike
indi
##uktur
bahu
leher
##ulasi
peran
##one
senin
##imut
terang
##ell
##ork
##orok
kelola
sip
makhluk
jalang
tulang
entri
rajut
##ogle
pasir
kond
blok
tangga
sebar
cermin
tarung
taruh
bulu
bugar
detail
iden
antisipasi
damba
teks
lemari
lapor
komunikasi
drama
gula
tabrak
ahli
nasib
novel
gigit
jurnal
rutin
##ografi
neurotik
bungk
terbit
geser
pasien
dendam
kuliah
acak
bit
del
ed
font
hip
it
kana
lip
mi
ment
nasih
ril
sc
tin
tik
tong
taj
vital
##ag
##ret
##ew
##ou
##se
##sgi
##sus
##ku
##kar
##be
##bo
##jol
##qu
##ern
##tul
##iden
keb
tegas
##ish
akr
bahas
belah
merek
##orasi
juta
tuan
semi
kursus
nyala
pasuk
kontak
apartemen
gelomb
artik
##egas
sikat
abad
iklan
simpati
minyak
eks
google
latar
konstan
konsisten
kue
kutip
##omba
spesi
book
gemuk
hijau
##igh
kram
liar
yoga
kabar
rekam
topik
periode
materi
olok
bijaksana
keringat
lokal
tuntut
spiritual
gym
rengek
nasihat
tajam
##sgiving
gelombang
aus
ambang
basa
cont
dah
giat
gegas
hap
lil
lond
lomba
ner
pih
tir
was
##rr
##rah
##rut
##ef
##eet
##ni
##con
##by
##vitas
##jin
##inc
##ikik
teh
unik
aktiv
##itra
sepak
sensi
##rip
##imen
layar
##ativitas
sifat
alk
mabuk
##endasi
kurus
prot
##omendasi
manja
koneksi
api
geli
gaul
singkir
##antai
murung
komb
thank
kakek
tag
ganas
sarap
peluang
stan
pesa
nada
hei
tebus
rekomendasi
paman
konflik
denyut
ayam
studi
radio
##gunakan
gigi
utara
cangkir
jahit
individ
bookmark
contoh
london
pihak
sensitif
thanksgiving
af
amat
aju
audi
ceg
gali
hol
je
kamp
kala
klik
lam
ling
mot
met
no
nali
nom
pm
pons
qu
ratus
sir
##au
##ay
##to
##ous
##yu
##yun
##ler
##lung
##bs
##mm
##mer
##jat
saji
##tum
dip
tema
##tic
##itasi
bahan
lemb
level
##eku
##entrasi
tahap
##umun
pay
##uhu
lacur
terp
##osis
kereta
kerumun
##olog
mac
##tra
kafe
gunung
rajin
selimut
##rea
gelas
##tern
emas
sekaligus
realis
paru
paruh
##geri
surga
rob
konsentrasi
kualitas
tunggal
ste
##amatis
kred
ketidakp
kasual
pusing
kristus
saling
miskin
kolam
rangkul
rangkai
tenggorok
tumpuk
finansi
twitter
mahal
disalahgunakan
biaya
fitur
dampak
kondisi
bungkus
akrab
neraka
kombinasi
pesawat
individu
ponsel
finansial
area
cal
cina
el
fir
gil
hingga
jun
jep
juli
len
lis
lur
misi
ni
non
ngeri
pet
suhu
ton
tara
vir
##rol
##gen
##ney
##sasa
##ii
##ias
##hh
##bl
##der
##wn
##ver
##jata
##jala
##anye
##eral
##tusi
##unya
##irah
##tian
bajing
lelu
##adar
##adisi
betul
##ustri
perman
##onis
senjata
##imat
terapi
ketat
##oritas
berkah
berangkat
##irip
pandai
masak
##uasan
kain
prom
blank
hasrat
gay
gairah
realitas
langka
tengkar
roti
gugur
fotografi
panggung
teknik
rusa
batuk
lemak
kreativitas
angk
kemas
obrol
resmi
tradisi
kompet
head
remeh
polisi
traum
dramatis
taman
koleksi
bangkrut
gejala
semester
kalimat
desainer
pingg
raksasa
presentasi
memberitah
praktis
detik
defin
kandung
rutinitas
artikel
basah
kalau
linglung
diposting
terpana
ketidakpuasan
lelucon
at
awan
but
bub
cadang
cab
dat
debat
darat
ged
hum
il
jo
jemp
kub
kapas
kikik
lamb
lantai
mala
malang
ras
rib
reb
sih
tuk
tom
tomb
ump
york
zona
##pe
##tes
##gn
##osa
##ny
##nia
##uari
##san
##sen
##co
##lat
##br
##mas
##vok
##anet
##ake
##erang
##erimen
semp
##inci
teori
tetes
##ihara
akses
badai
##ith
##iter
antar
benda
bencana
sepakat
sepoi
##tabat
perang
##imb
##umen
laba
lajang
##osh
hidang
hidung
altern
##oth
##truk
tanding
bank
mantel
##edi
pasrah
manaj
david
aplikasi
gelang
sebentar
##tifikasi
ceria
tunda
hening
industri
candu
siklus
mewah
kamera
tawa
konserv
batal
dosa
pelihara
status
angka
panggang
respon
##lay
ekspos
eksperimen
bandara
marat
martabat
##over
gulat
misal
topi
generasi
plot
susu
periang
wajar
iring
modern
publik
cacat
hutan
hutang
empati
universitas
pipi
ringkuk
sms
identifikasi
bitchy
tongkat
##ight
tagih
cegah
motor
##ekuensi
gilir
lurus
permanen
memberitahunya
definisi
alternatif
konservatif
ac
amb
ayun
cd
cas
cor
emb
fiksi
gre
hot
hop
jul
kank
lid
long
land
mirip
ph
peka
parah
rap
rit
red
son
sangkal
tus
tata
tre
val
vinta
visi
wal
##tam
##ro
##uck
##les
##ds
##vi
##visi
##jir
salin
##asaan
##atan
setan
##ine
instr
akibat
analis
beku
sepupu
##pau
##onomi
hard
layang
halang
sekadar
terj
##aitu
kerah
##olar
##olik
bela
tiup
makna
jalur
##epsi
jack
##trik
##tralia
rac
rabu
pred
prestasi
selasa
daun
apala
tanggal
arus
master
seberang
struktur
india
##ancang
supaya
pahla
part
file
toler
rock
##taka
konsumsi
##ilau
kuil
warga
##yarat
down
bob
restor
sembah
mempostingnya
##own
demam
lapis
interaksi
hakim
gulung
pustaka
relatif
tebal
salur
salju
efektif
you
##obi
tabung
bibi
internasional
planet
##ofi
##aaaa
pound
kontrak
lubuk
hantu
hantam
padan
boneka
konteks
kusam
luncur
organisasi
larut
australia
aktivitas
standar
lampau
metode
payudara
kredit
lensa
datar
jemput
kapasitas
sihir
tombol
umpan
respons
kanker
lidah
tusuk
vintage
apalagi
pahlawan
restoran
ale
bom
bisik
ceng
cek
ced
don
fri
fond
fase
gu
gud
get
hela
jon
jim
kit
kud
kok
kla
klin
kilau
lutu
lamun
lampu
my
mc
nar
nutr
pid
pom
paha
regang
sung
ster
syarat
tut
uap
wah
wis
yaitu
##pah
##ael
##ral
##gin
##ea
##ega
##oc
##uel
##ster
##ks
##kosa
##leks
##lorasi
##bi
##mon
##vas
##jah
sayap
##aser
sembil
##intir
##ikan
##ide
##aman
keji
inci
##ist
undur
##til
akad
bajik
##ings
bekas
##ula
##saya
perangk
perkosa
##muda
##rick
##imal
pai
label
kerabat
adik
##ley
##itab
##olusi
ali
mula
##sif
puncak
seret
bukit
kaca
kacang
banjir
prop
rumit
apatis
##embab
tampan
strate
canda
asumsi
suci
suguh
kencang
pinjam
abadi
murid
mini
ekor
ekonomi
kakak
##gumen
##cho
##ugh
konstruk
konsekuensi
timb
##ensif
span
potret
pemuda
tran
skor
loyal
picu
tips
tipis
ampun
eksplorasi
medis
norma
##geti
jaring
##ofol
insiden
tangguh
desk
konferensi
kontrol
frasa
##wich
sandwich
psikolog
##ght
botol
rampas
kilas
sorak
sapi
delapan
kanada
mich
rilis
scot
tinju
kebun
dahulu
realistis
kompetisi
trauma
gedung
malaikat
maraton
racun
prediksi
cedera
fondasi
kudus
lutut
nutrisi
pompa
sungguh
sembilan
akadem
perangkap
strategi
atle
by
bapa
cl
cali
cra
duka
dub
draf
dolar
et
ejek
fed
form
gas
gitar
hy
ip
ira
jas
kap
kis
lbs
muas
mike
mitra
nas
nofol
px
pensi
run
rentang
rancang
sun
sent
sutr
tor
tud
wo
wil
wor
wila
wuj
##pek
##teg
##ril
##res
##gam
##gon
##ez
##een
##oid
##opa
##out
##ound
##ner
##nih
##sal
##sir
##sor
##ius
##ion
##yn
##yy
##kr
##ham
##his
##ft
##fik
##dy
##va
##vil
##vensi
sas
sali
saraf
##yat
##angi
##asik
##asis
##asil
##aster
##ene
##ath
##ater
##aki
dana
##ino
integ
##untuk
##ise
akar
aktor
##ilet
anim
antusi
les
##ado
##adara
##ektif
karir
##utty
##adion
##rive
sedot
pabr
pageti
##upas
##upun
##aluasi
sekarat
harima
##osp
##oss
##osok
##let
belok
kelinci
##back
pandu
panjat
##sial
##ema
##odi
barat
kaus
pranc
mandiri
##ublik
selingk
##utusasaan
gelar
argumen
jelaj
##egori
isap
cerai
##opsi
tunang
https
real
reda
keputusasaan
jamin
komit
komedi
pulau
rias
rich
##wancara
that
##andia
##andom
konsep
grou
##lie
produksi
ganda
pelembab
spr
stadion
##usif
kemo
curah
##pastian
amal
amuk
chi
skala
yay
republik
unggah
ketidakpastian
meditasi
live
kanan
esok
toilet
persepsi
prospek
miss
bakti
rangkak
tumpu
tumpah
genre
coklat
jernih
##oooo
kalori
okto
wawancara
##ift
kategori
model
baby
colok
lukis
pingsan
slutty
ayat
cair
mahasis
padu
intensitas
forum
piring
##fornia
transf
transisi
klasik
memberitahu
tempo
tempel
praktik
evaluasi
empuk
##phone
referensi
christ
organisir
billy
staf
italia
tiket
hapus
##incir
alkitab
audiens
nomor
kafein
robek
juni
jepang
peter
tradisional
pinggir
ribu
manajer
landas
hardc
partisipasi
tolerir
alex
cengeng
gudang
spanyol
deskrip
california
nofollow
pensiun
sutradara
wilayah
wujud
antusias
pabrik
pagetitle
harimau
prancis
selingkuh
jelajah
grouchy
oktober
mahasiswa
aut
blu
bimb
cap
con
cita
cew
cinc
citra
dv
dom
deb
dangkal
dosis
drive
ear
fem
fandom
geng
his
hir
imb
jil
joh
kim
lit
lot
lamp
lib
lanc
like
laser
ms
muat
mampir
ng
nadi
nai
not
nong
os
otor
pisa
papan
reg
rapi
rasional
sul
silang
star
sch
tal
tod
uw
we
win
wall
xd
##py
##per
##por
##ach
##tw
##ren
##ec
##ein
##oar
##now
##nologi
##ux
##uch
##sek
##sesi
##yl
##ke
##ling
##bur
##bet
##fi
##mal
##dut
##ven
sains
##astik
##art
##are
##ated
##eras
##eram
##ergi
##iku
##ida
kekan
kedi
tetang
intel
##istik
##irm
##titas
##uksi
baya
baju
back
##ity
##ario
##ily
bahak
anti
##urat
lel
##adil
benang
benjol
##ush
##ektual
sekutu
##esor
##mpet
##ory
##ord
biji
##ose
##ation
adopsi
samar
belit
alis
##utube
mulia
jagung
jajah
maj
maupun
baris
comp
##tral
end
kacam
kayu
##ohol
pra
pras
##omatis
mantra
bangsa
pasu
pasta
selera
apel
april
gelincir
luc
tampar
paket
pilek
singap
buta
sikeras
seringai
meta
gerbang
murni
anggar
angguk
dekade
paris
parkir
filos
tolong
erat
kaku
konsul
konsumen
kuasa
teknologi
provok
sengat
opsi
sarang
dompet
statis
bocah
faktor
objek
obsesi
##resif
ideal
gemetar
kunyah
kompr
kompleks
lapang
puja
telur
kritis
netral
polos
politis
life
brown
##oria
dokum
kanvas
info
dini
subs
krisis
lumpur
youtube
otomatis
rayap
binatang
flat
flash
gener
nyeri
susah
geor
moros
profesor
##here
black
oke
haus
katolik
november
ekstrem
sandung
presiden
pirang
pirsa
bonus
disalahpah
heran
rampok
refl
stabil
sapu
sipil
hiper
mentah
tinjau
tikus
##que
spesifik
lilin
alkohol
protes
studio
holly
macet
surgawi
steve
listrik
tonjol
cabut
tukar
julia
phil
ritme
tread
bobot
klaim
klinik
transp
scott
naskah
##krong
##hisap
anime
komitmen
christmas
hardcore
deskripsi
bimbing
cewek
cincin
dvd
lampias
nongkrong
pisau
kekanak
kedip
tetangga
intelektual
kacamata
statistik
disalahpahami
atap
asia
bf
bap
bra
bidik
bond
ce
cam
cun
cup
cengk
dar
ded
daki
era
fb
fit
fes
fre
feb
fash
fasil
gt
gal
gol
gand
hmm
hobi
iv
item
ibl
jak
jin
kode
lim
ladang
mid
mum
mama
mog
nal
nol
nyi
pp
pt
pap
pena
pem
post
pengan
pist
rat
rol
shir
sind
suruh
tentara
ugg
utuh
vis
vari
vegan
wow
wood
zomb
zaman
##put
##tong
##tom
##top
##rika
##rot
##ruari
##gak
##our
##ole
##no
##nie
##sit
##sil
##sel
##set
##ix
##ct
##cor
##kl
##ked
##ha
##ls
##lim
##bar
##bah
##ble
##mara
##mamp
##mill
##dam
##we
##wis
##wood
##van
##vin
##juh
sad
saing
sapa
saud
##enario
##ato
##ahu
##ere
##ery
sejuk
##ini
dial
keju
kedut
ted
teki
intip
##dab
##unk
##istan
uni
##tilah
##tion
bag
anjur
antuk
lee
legi
##gie
bend
bed
besi
##ult
peras
percik
perangkat
perahu
##onya
##onakan
##onansi
harry
sensor
##muh
mering
paul
lab
laur
lacak
sekuel
##eling
##elle
##mpah
##osek
piknik
aduk
##lega
##manan
##oli
belai
kelupas
##kannya
sign
allah
alergi
makalah
pancing
##sion
##otoar
takluk
##oke
agen
agam
tujuh
##eperti
seram
may
com
cook
##trator
tani
burger
kau
raja
kurung
bantal
##ehe
##ogot
pasok
selandia
konvensi
dagang
gelitik
khas
##teri
massa
##embung
muse
musisi
istilah
emily
##ontan
hormon
menghisap
##tttt
##eball
buluh
rujuk
rempah
kepal
kostum
ubi
ash
asap
asisten
asmara
kenyang
kencing
mei
mejam
gerutu
gerogot
balita
kolega
mood
simpang
usus
partai
minimal
eropa
rendam
thail
tayl
##tahuan
rober
konsol
ramai
negeri
time
grup
kumuh
##lian
waras
waris
##cker
teka
dering
sabun
lemon
kreasi
pelangi
spor
spontan
panggul
kemeja
resonansi
imut
imaj
sampul
trik
trotoar
char
skenario
tumit
jenak
televisi
love
piano
paranoia
##impiade
januari
serial
interp
kritik
ketidaknya
ketidakadil
ketidakmamp
proyeksi
superi
mark
selada
##stra
kantong
esensi
guling
infeksi
reli
sound
subur
garam
##eotip
topeng
tumpang
internal
flor
nyonya
plus
final
nafkah
jarum
jerawat
##ofob
instan
desak
desember
belanda
ofensif
kontraksi
rahmat
olimpiade
gamer
logam
logika
jurnalis
homes
homosek
just
sweet
##ford
kontes
url
biadab
kusut
sorot
port
ringkas
blokir
identitas
lipat
rileks
spesial
tirai
waspada
afrika
jejak
kampanye
nominasi
quil
julie
promosi
angkut
bubuk
humor
kubur
rebut
tomat
sempit
semprot
instruksi
terjun
pidato
stereotip
konstruktif
timbul
michael
draft
kapal
kisar
sentak
tuduh
memberitahumu
femin
genggam
hirup
imbal
jilat
john
lancar
naif
otoritas
reguler
todd
##irmasi
majalah
singapura
metafor
filosofi
dokumentasi
substan
refleksi
treadmill
baptis
celah
cundang
cengkeram
dedikasi
februari
fashion
fasilitas
iblis
mogok
nyiakan
pengantin
pistol
roller
zombie
saudari
thailand
taylor
ketidaknyamanan
ketidakadilan
ketidakmampuan
superior
aa
bb
bor
bud
cy
cc
cul
cub
camil
dh
dik
did
data
deg
ey
eh
eur
eri
eja
ets
fal
flu
fig
fuck
gir
gur
gum
gua
gosok
hel
hend
hoo
if
ite
iphone
jemb
jers
king
kul
kuas
lj
lum
lisa
lor
mr
mam
mir
mad
mut
mend
mont
nur
net
nic
out
off
pud
pep
pori
pangkal
play
ry
rur
rom
ret
ryan
ratu
sti
spa
skin
sod
ty
tena
tri
tai
trim
vo
van
vag
west
wew
xx
zat
zim
zum
##pap
##aga
##tod
##tember
##ras
##ron
##rama
##rom
##ront
##gram
##oom
##nam
##nado
##ue
##uu
##uf
##ss
##stik
##iun
##yur
##ybo
##ker
##kai
##kop
##kologi
##he
##log
##lop
##bal
##bri
##fum
##my
##mar
##de
##den
##del
##dok
##wak
##win
##val
##jo
##jal
##ann
##annya
sara
sastra
##yam
##astis
##ary
##arm
##aras
##arela
##asat
##entil
##ahter
##akuk
##aksasi
##eran
##ersial
##aler
seg
sewa
setap
##tualitas
danau
##ink
##iko
##iket
##iday
##app
##apak
##aptasi
diy
diani
kele
ketuk
teguh
tegun
inj
intr
injak
##engsek
unit
##ire
##titusi
aksen
akurat
dengki
bay
##itor
##itney
##ild
##illy
##ington
anat
anna
##ure
##uri
##urch
lekat
legen
##adah
september
##ull
##ulans
permal
##entik
##unge
##uth
##utasi
sendok
##ria
##ume
seduh
payah
##upon
teror
militer
##ella
##ors
##orang
##ortasi
bios
##osisi
kerut
kerangka
admin
advok
adaptasi
##cago
titip
all
##sip
##ots
##otbah
##okasi
agung
agresif
##emy
tuang
jabat
jazz
serap
max
mayat
come
##tre
##trosp
semut
encang
##cip
##endor
kay
pref
kembar
##ome
manip
nyali
bangsal
##ogan
paskah
selip
selatan
selaras
##osiasi
rumput
apresi
priv
geleng
gelintir
gelembung
khotbah
arogan
mask
##time
mustah
ish
isak
cermat
cerob
horor
tunai
duniawi
street
pakistan
retrosp
keponakan
cantum
kosm
asam
asrama
asosiasi
bingkai
abc
muram
komersial
kamis
koyak
usang
dekorasi
debu
parfum
erang
this
##afik
roda
##andatang
konser
pangeran
batin
munafik
bunyi
populasi
sarah
lemas
stasi
state
tindas
angel
sisih
mellow
bow
obama
sembur
amster
sukarela
tren
truk
##owers
gema
sky
skema
jenius
kuno
pijat
amplop
##tival
jane
jantan
naksir
puing
reputasi
fantasi
korea
sejahter
telapak
kru
kriket
ketidaks
ketidaktahuan
glob
senior
cakup
lempari
brengsek
penis
pensil
##orial
drastis
dokumen
shin
shell
shift
gulir
mentalitas
relaksasi
tebing
pose
salon
garuk
cucu
kabur
epik
kolom
rekor
rangkum
tablet
tenggat
link
linux
lengkung
tumpul
bintik
genit
onkologi
plat
plastik
supermark
finis
sandar
susul
dewi
jerit
jerman
jeremy
geek
gesa
sumbang
sumbat
konfirmasi
konfront
kaleng
solo
##tha
##ashington
##ifikan
hawa
rahang
ironis
matt
matemat
cru
babi
gigil
pendeta
rakus
when
what
psikotik
homofob
justin
rute
swe
klip
makeup
tuntun
detok
evolusi
uras
kilat
baseball
##landia
siput
lipstik
menteri
mentega
tonggak
material
tiroid
##rrrr
protein
kampus
lembar
lembab
##ologis
robin
firasat
jepit
lisensi
nick
virgin
angkasa
pinggul
bubur
ilusi
rebus
aksesori
ambisi
ember
hotel
hope
longgar
##room
instruktur
jackson
kokoh
tutorial
wisata
properti
##chool
psikologis
etika
formula
sasar
richard
spring
chicago
junior
antusiasme
domin
debar
kimia
liberal
oscar
wallpap
konsultasi
kompromi
transportasi
bondong
cupcak
festival
jinak
naluri
ppl
pemr
ratap
variasi
##klusif
dialog
bedah
signifikan
mayoritas
cookie
imajinasi
homeschool
quilting
feminin
metafora
substansi
cyber
culik
etsy
figur
gumam
jembatan
jersey
nurani
rurut
tenaga
vagina
##entilasi
setapak
dianiah
legenda
permalink
bioskop
manipulasi
apresiasi
mustahil
ceroboh
retrospeksi
amsterdam
sejahtera
global
supermarket
matematika
virginia
wallpaper
av
aga
ate
ath
bs
bam
blah
basi
bre
bengk
cus
cent
cum
cuka
camb
cre
club
ds
das
dur
dul
dong
dre
dont
dump
eb
ex
eba
esp
eli
euf
ff
fen
fat
fur
fol
fab
fob
fund
fic
food
funk
full
gh
gm
gai
gub
gump
graf
ho
hu
ham
haf
hand
how
hill
hell
hehe
ilus
jor
juru
josh
ki
km
kin
kuar
kong
kamb
koh
kip
kli
kias
know
lb
lad
lus
lon
los
limut
lds
mang
muk
mit
malah
mol
mind
memb
matang
mie
mons
meks
mys
mic
nd
nuk
nor
nark
nath
ox
omb
over
pit
padang
pember
rin
ros
rud
rod
rip
rantai
sit
sil
sidang
sosok
some
terti
taf
usa
utas
umat
verti
vol
vok
vampir
viv
vendor
wi
wig
wond
wif
with
wadah
washington
xmas
yu
yat
yah
yun
yash
zen
zach
zoom
##pt
##pg
##ps
##ped
##awan
##ack
##awis
##tari
##tet
##ted
##tidak
##tney
##ror
##ritas
##roduk
##row
##rov
##retar
##gy
##gah
##gap
##ges
##gensi
##gital
##eal
##eed
##evan
##ool
##oba
##ning
##uc
##uis
##uit
##uasi
##uff
##uce
##st
##sy
##sw
##ser
##sur
##sta
##seb
##sand
##sey
##io
##ien
##iasi
##iff
##yung
##com
##king
##hi
##hy
##han
##hol
##hay
##hael
##lak
##lis
##lir
##litas
##bor
##bia
##bie
##ball
##fr
##fel
##fli
##form
##ms
##mur
##med
##mont
##don
##dia
##wang
##vis
##vig
##za
##anda
##anel
##anna
##anne
sash
sayur
sayak
sayab
##angian
##asya
##aru
##asalah
##ensasi
##atur
##ahah
##ereng
##ale
##als
dansa
##iner
##inap
##iki
##aps
##apback
##ams
##amin
##aming
##aminasi
dir
div
dick
digital
ketu
kemp
kedai
keybo
intu
intai
##unt
##isasi
##issan
##tit
##tie
##tiara
aksi
akom
dengung
##uki
##its
##itz
##iting
##aria
##ilik
##illa
##ingkat
anal
antis
antre
lead
leleh
letus
##gius
benak
benam
bened
benua
bentak
bentang
benjam
beat
##usse
sepel
##tagram
##pace
##ertilitas
orgas
oranye
##ekolah
##ektur
##ekusi
karen
kardi
permen
perawan
peringkat
##enter
##onas
##oner
##onim
##ones
tahta
harta
harfi
sendi
##riors
meros
pacu
pajak
hall
sekretar
milu
##eld
diagn
diabet
##ese
##esh
##ester
##esitas
##ora
##orika
##oratif
bius
biof
##osir
pikat
kerang
##lein
berlian
##ihatin
##hire
sesak
##oll
kelapa
kelop
kelont
kelulus
tia
alur
alarm
##bag
##baik
makam
pantul
multi
##sigen
##ote
##otasi
taksi
taktik
##oki
##okrat
saku
jalin
##ongan
##eme
##emo
##emen
##emah
##odasi
cukur
sera
seru
serend
serbu
serikat
mag
tular
coaster
semat
semak
engah
##endi
kaf
kaos
kaget
kawin
ray
raw
ragi
rach
banting
bankir
pre
prin
prod
pret
prihatin
##omis
mand
manik
manif
##eter
##ette
##edur
paspor
selang
selam
seluler
selidik
selinap
konspir
sinus
##rey
##ggy
##gget
primer
prioritas
geland
blow
blake
blush
tango
##terest
art
arang
arlo
arsit
jelang
##buck
isu
ceri
##opoli
departemen
##eblog
tunas
tunawis
##sualitas
blogosp
rug
stroke
selebri
indra
indikasi
indera
paku
retas
reilly
bual
bujuk
asih
james
pink
pinterest
tenar
abur
about
komik
ikon
balok
balet
motif
##ips
##ipina
dewan
defa
parodi
ritual
turki
##angkuk
minoritas
filipina
tolol
ering
##afe
idola
taco
alamat
room
mutiara
konseling
konstitusi
ramu
renyah
ular
ulat
menstr
menandatang
timur
times
grosir
kendur
maksimal
warriors
teknis
produktiv
derby
bundel
sarana
doc
dood
douch
spo
spl
spek
spons
stok
story
melodi
melakuk
boo
bocor
kemih
obesitas
resah
resap
resesi
resolusi
imig
sampanye
amy
ameri
busur
peti
peta
peep
pejal
trek
trofi
che
chin
chip
choc
church
gemas
gempa
tumbl
##babwe
jens
jenaka
##gans
memar
##toris
naga
piala
pijak
pizz
kompensasi
##lac
##berg
heck
height
##bilitas
high
##empar
serangga
omel
optimisme
laptop
disney
distrik
pucat
koran
kruk
ketidakse
poles
medan
glas
liga
mary
martin
marsh
##amily
##eksibel
brid
brad
bruce
penn
##ovasi
share
infertilitas
relevan
kristal
prosedur
motivator
misteri
your
##itahuan
tamasya
##eys
##ffin
kabin
epak
kolab
kolektif
tabah
bangku
fleksibel
nyc
superman
coke
finish
finlandia
nafi
susun
susur
##alisasi
bumbu
instagram
profil
desah
jurang
jurus
kalung
oksigen
elemen
marie
wawas
##ifikasi
kontras
have
haiku
sarkasme
##ograman
nasional
cross
koper
verbal
##ict
resepsi
color
colle
gigih
logis
publikasi
sandal
whoooo
home
swift
##mies
botak
klise
kontaminasi
ever
radiasi
ramping
urgensi
emotic
spiritualitas
kilap
lunak
snow
snapback
##erventilasi
news
bilas
bilik
kandang
large
patri
patrick
porno
kondusif
tekstur
bungkuk
hiperventilasi
liput
##retasi
##kuit
##bour
kebal
keburu
artikulasi
eksten
eksekusi
lily
lilit
tiru
audiensi
jean
quo
sirat
siram
sirene
##ouse
realisasi
calon
firman
junk
taraf
virus
virtual
kompeten
headphone
traumatis
atom
lamban
lambai
rasisme
tukang
manajemen
##overt
ambulans
casting
embun
greg
great
rapuh
raphael
redam
valid
validasi
terjemah
cekik
cekikik
friend
guild
jones
narator
tutor
wahyu
alice
##sifikasi
minimum
timbun
akademisi
atletik
dubai
federal
hype
ipad
ipod
jason
runtuh
tornado
woman
##ville
integritas
lestari
transfer
transformasi
historis
loteng
starter
##burn
backpa
prasangka
prasekolah
provokasi
generik
george
hollywood
christmassy
galeri
gandum
hmmm
jaket
limbo
sindrom
visual
teddy
bagasi
legiun
bendung
sensorik
laurie
roberts
sports
charlie
interpretasi
religius
florida
homoseksual
ccs
didih
eric
false
gurih
hendak
miring
mutlak
netfli
pudar
pepatah
retorika
still
sodok
taiwan
trimester
vanilla
wewangian
zimbabwe
zumba
##validasi
keledai
injil
anatomi
adminis
advokat
comeback
preferensi
privasi
stasiun
sukarelawan
shinobi
platform
konfrontasi
cruz
homofobik
sweater
detoksifikasi
wisatawan
cupcake
pemrograman
homeschooling
bengkak
central
cambuk
dasbor
ebay
euforia
fenom
hafal
hellip
jordan
kuartal
kipas
klien
monster
meksiko
nuklir
narkoba
ombak
pemberitahuan
tertib
tafsir
vertigo
wonder
yuuki
yatim
keyboard
akomodasi
antisosial
benjamin
sepele
orgasme
harfiah
merosot
sekretaris
diabetes
biofuel
kelopak
kelontong
serendah
manifestasi
konspirasi
gelandang
arloji
##bucks
tunawisma
blogosphere
selebriti
default
menstruasi
menandatangani
produktivitas
sponsor
melakukannya
tumblr
pizza
emoticons
netflix
au
az
ax
ari
att
asp
acar
aaa
aula
bri
ble
bol
buas
bost
btw
ci
cen
cin
cut
centang
cana
cia
cind
core
ceo
clo
clay
css
cafe
dy
dl
dm
dd
dad
dum
dot
deh
dra
dark
eg
etap
easi
egal
eth
eag
far
fam
fos
fasih
fli
fatal
found
flac
family
gf
gat
gent
gapa
gong
god
gra
gender
gatal
gempar
hun
hil
hung
hai
hamb
hed
hib
hemb
hsp
hob
hyun
husse
hoki
ii
ian
itik
ill
its
ibs
js
jami
jet
jog
jomp
jess
jorok
jema
jentik
kg
kn
kentang
kai
kog
kib
kalang
kupas
klein
ly
lh
lik
limp
lost
lampir
lore
llo
liter
light
lancang
lereng
ml
mim
mai
mud
mong
moh
mua
meg
mop
morm
mig
mona
mapan
mikat
mph
nu
nang
ngang
nest
ness
oc
ov
oat
oak
ong
oli
oceh
pg
pc
pb
pis
pur
pon
pup
pita
pok
pangk
pow
petak
pond
rd
ran
ruk
rad
rena
rup
rong
ria
rub
remb
ront
rte
rans
rinci
rpg
ss
sya
sang
serti
sim
sle
sca
slu
stik
ski
sangk
sirip
tg
ts
tl
tb
tx
tit
tta
tsa
tali
tama
tinta
twat
ug
uh
udang
va
vs
vi
vas
var
vin
vit
vba
veg
vanc
vers
vict
wt
wid
wali
wed
wab
wala
wip
wins
will
wee
work
wangi
wush
were
xana
xvi
ye
yk
yel
yomis
zh
zend
zay
zack
##pr
##par
##pen
##pun
##ping
##puh
##polar
##pool
##av
##ain
##autu
##aish
##teng
##torm
##town
##rs
##ran
##ring
##rai
##ros
##rina
##gr
##gl
##gih
##gil
##gola
##graf
##gedi
##ex
##eti
##eve
##eaming
##ox
##oir
##oon
##oor
##oman
##och
##off
##otic
##ooth
##ough
##oissan
##nan
##ness
##nografi
##so
##sed
##skap
##sisme
##ston
##seperti
##iel
##itif
##ich
##ijing
##yp
##yd
##yuh
##yok
##ysia
##yth
##yne
##yiku
##your
##cy
##cf
##cer
##cil
##cum
##ckin
##ctor
##cest
##cade
##cino
##kang
##kun
##kit
##kur
##kup
##kes
##kali
##kos
##kom
##kaj
##hb
##hen
##hur
##had
##hon
##hers
##hig
##hover
##haler
##ld
##lang
##las
##lam
##less
##lroom
##bak
##bing
##bek
##bai
##basi
##boh
##baha
##band
##bow
##fc
##fl
##fd
##fer
##fal
##fin
##fit
##fes
##feksi
##fikasi
##fikat
##meng
##muk
##ment
##monton
##mond
##masalah
##df
##dv
##dik
##dis
##dari
##dus
##dom
##date
##wh
##wen
##wri
##wok
##wons
##vender
##voi
##vitasi
##jadi
##jana
##ze
##zi
##zel
##xi
##anan
##andi
sain
sair
saus
saleh
sajak
sall
saudi
##yama
##asas
##arak
##arasi
##aret
##enar
##enal
##ening
##atik
##atri
##atter
##ather
##aks
##aker
##aking
##akut
##aktif
##akota
##aklan
##erin
##erut
##erai
##erapi
##erisme
##erlang
##alo
##alm
##alin
seo
segi
seja
dandan
##inel
##intus
##infeksi
##inwri
##ikul
##ido
##idi
##ider
##idur
##idmat
##idrasi
##idrat
##apetak
##amika
##amental
dim
dian
dias
diad
disa
divisi
disip
tetas
tech
tebang
teater
insp
inklusif
inhaler
##day
##uns
##unami
##unia
##unch
##unts
##enggu
##iserin
unza
##ihan
##iral
##irin
##tiga
##ties
akun
akut
aktual
akting
dengkur
baur
bajak
badas
bawang
##itan
##itatif
##arian
##arium
##iler
##ilitas
##ilian
##iliun
##iliasi
antik
andas
anne
annie
angie
##wave
##ways
##urger
##urge
##urtney
##gai
##gadang
lego
ledang
lepuh
##gic
##adid
##adel
bea
betis
bett
begin
becom
beijing
begadang
##use
##user
##usur
##ustr
seprai
##taga
##tawan
##tafel
oris
oreg
ortod
##ular
##ulin
##ulsif
kara
karung
karet
karate
karni
karboh
kardus
##saw
##saat
##sabar
pergola
##entase
##ony
##onen
##onia
##utal
haru
harmon
senjang
senator
##muwan
lebat
lebah
merasa
merasas
##arawan
##imbang
##umerisme
sedak
sedingin
pac
paus
pavil
law
laci
labu
lafal
lavender
##upan
##uper
##uput
##upasi
##mble
laksana
halte
hallow
sekian
terow
terob
termin
ketik
##elit
##elum
##elamat
##eless
##ellie
##eliner
##esan
##jabi
##jabar
##alahpah
##ort
##oran
##orus
##ores
##orsi
##order
big
biara
biola
biologi
bipolar
##osal
##ative
kerip
adon
adren
addis
##leans
##lemen
##ude
bern
berk
berisik
beruang
bebek
sams
sesap
##ols
##olf
##olic
bell
belenggu
kelab
##kansaya
tigg
siar
siwons
alt
alias
alokasi
almond
aljabar
##kind
mungut
kecam
panti
panel
panci
mulas
multip
##sie
##oten
##otin
##otis
##otes
##otisme
takhay
punk
pundak
punjabi
sakral
jalar
##emil
##emek
##emon
tupai
##oditas
##odoran
##eph
##epal
##epika
##eptif
##epakat
masala
jay
jac
jajar
serat
seruput
majik
magis
magic
barbie
count
cowok
courtney
##tram
##truktur
##tronas
tank
tantra
semen
semata
semangkuk
semarak
buruh
enteng
##indaklan
##water
##endy
kaum
kawat
gunong
gunting
ragam
##ambia
kurikul
bantai
##eheh
prog
preg
premat
prag
kembung
##omo
##omm
##omas
##omnia
mantap
manila
manual
manset
##eth
##etik
##etsa
##etha
##etnam
##etarian
nyaring
nyamuk
##mate
##matis
##edin
##edia
kesalahpah
##ogen
##oger
##ogging
##dies
selai
selangk
selektif
konver
konvoi
##giaan
##rew
dave
days
app
##gging
prime
geleg
blaster
mesti
khidmat
ara
arab
artif
aryiku
arcade
aretha
massal
##kie
palet
##ibilitas
##isien
##isial
jeli
##bug
muslim
ism
isra
islam
cerna
cerdik
##ops
##opat
##oper
##opis
##opati
##opia
duke
##onto
##ebek
tart
taryn
bulat
##raina
##juti
tampung
string
strop
streaming
indones
gaji
gagap
pakar
rea
rec
rex
reta
revisi
pilar
keping
cant
cantor
uber
buff
##ance
pedang
asah
aset
astaga
asupan
suz
seringkali
kenny
nikotin
pincang
pindai
mega
gertak
gerebek
tenun
abdi
abstr
absen
kome
komoditas
alaska
iklim
balistik
ballroom
koord
mous
mock
mojo
##ajat
##ipro
usir
usil
usul
uskup
dekoratif
dee
devil
deodoran
deepika
parsial
##inae
##umper
riak
turn
turis
turnam
mineral
cemerlang
filter
erik
##esif
##esioner
tha
there
good
##chers
surut
surve
idk
idul
##jizat
anting
root
royal
##ando
muffin
tambang
tambat
konsumerisme
negativitas
renovasi
gugat
belaka
menu
meny
mensa
menopa
menindaklan
fotograf
timah
grand
ground
kuya
kuesioner
kendi
##lies
##liams
##tury
wartawan
##cky
##cking
rusia
deru
derak
derajat
##gow
sabot
open
oposisi
##ormal
batch
baterai
buntu
bundar
inspired
poppy
sark
peluru
pelintir
peluit
spen
spit
spot
spiral
potter
strip
angan
angsa
melintir
postingan
boot
boots
canggih
kemah
##dash
resume
sembelit
lanskap
ima
rentet
curang
curam
paragraf
sampel
amish
petronas
trendi
triliun
tropis
##oward
cha
china
chanel
chorus
cemberut
gemilang
sketsa
tumbuk
kuntit
memori
memvalidasi
##torsi
musikal
lov
lounge
louis
nao
naung
navig
##care
komposisi
komponen
##bert
##berry
##tivasi
##tivisme
ekspansi
hey
demons
demokrat
##ersh
##erson
##ersonal
##ersary
manusiawi
melankolik
omg
fajar
##meal
disc
distribusi
distorsi
serif
puitis
reproduk
romansa
fanatik
koreksi
korintus
sejarawan
inters
intervensi
##ompet
telusur
krem
kronis
need
ketidakhad
ketidakbaha
ketidaksabar
polong
polandia
tragedi
bersin
medali
supers
suplemen
gliserin
lahap
halusinasi
liat
lieb
licik
living
lift
maret
margin
martha
brd
brook
brasil
britney
brilian
brutal
malapetak
penyok
pencil
##strom
estet
kasir
kastil
show
sheri
shhh
shann
shatter
shinae
tato
tatih
nanas
infras
informal
dinamika
efisien
pushover
soda
soul
soft
subaru
toon
toby
##mawan
salad
salib
person
persentase
perseptif
gary
garasi
##raft
celemek
mister
baker
cuz
cuti
other
otentik
karyawan
epidur
rekening
topang
line
lengket
##cape
bibit
flop
one
nafsu
sandi
susup
##lyn
camping
jerry
##tein
gejol
mord
morris
morgan
##oft
insting
inside
insider
insomnia
lolos
ukraina
kartun
destruk
summer
ahaha
biskuit
kalkun
okupasi
solid
##things
##ashi
feed
feautu
kutub
maria
wainwri
##ifer
fran
frosting
frekuensi
friday
frapp
katy
katnis
diskon
irasional
iritasi
improv
impulsif
modal
modul
modifikasi
test
tesis
testis
##tribut
creme
croissan
dupa
hannah
kopling
two
tweet
tote
colby
denise
luke
pinggang
slip
sloth
slide
slogging
intensif
logo
whit
whitney
which
psiko
psikis
psikologi
psikopat
padding
organik
sween
swedia
stumble
webkit
##tine
##miah
##ografis
neuropati
carol
carter
loki
albino
hero
##love
sensasional
kustom
sniff
##phia
##shi
##vely
##zzy
tempura
defensif
christian
newtown
universal
university
basis
basks
cangkang
damping
hahaha
laris
monta
monopoli
patted
portu
pornografi
pipit
smooth
sipu
edit
edge
editor
edmonton
mix
##ouver
##ernur
eksklusif
eksotis
##ights
austen
aussie
dahi
haptic
happy
happen
wasit
wastafel
##nitif
##nitur
aktivis
##ript
ceguk
holiday
jeff
kampung
lamar
noe
##merasa
lembek
lembaga
payung
##track
steak
individualitas
caleb
elang
juliet
pete
##iiii
angkuh
butik
button
cabang
humbug
ilham
ilmuwan
ilmiah
kubang
malaysia
ribut
##coaster
##others
marathon
motorik
acuh
cdn
cdm
cassand
corn
coret
juluk
landak
ritel
valent
toleransi
##aaaaa
donat
guy
koki
klinis
narsisme
pidana
steril
wiski
##ricks
proposal
konstruktivisme
tranny
michelle
akademik
akademis
atlet
claret
cray
crack
dublin
etnis
formal
hyena
suntik
sungai
toronto
wilder
williams
wortel
##resan
##eze
##ezer
##yyy
integrasi
integral
really
spritz
blue
blues
conne
confes
little
mso
ngeblog
ngemil
notes
sulap
sulfat
starbucks
talked
winter
winey
##perasaan
##rence
##ecomm
##burgh
##field
##mallow
leluhur
lelaki
compang
endus
endor
lucy
lucas
lucut
provokatif
obsesif
kompreh
generalisasi
georgia
blackburn
philips
philadel
transpar
darurat
fitri
fitnah
freezer
limun
midw
mumi
mumbai
posto
shirley
shiraish
sindir
uggs
vista
##oled
##sele
sadap
bagel
bendera
labirin
lauren
konvensional
museum
konsolidasi
interpersonal
soundtrack
jurnalisme
homoseksualitas
portland
johnny
rollercoaster
bbq
budd
cube
cubit
eyeliner
fucked
helai
kulai
lorong
mamm
madu
month
montana
outlet
romeo
trial
xxx
##todes
##waktu
segel
segmen
introvert
maxs
maskara
maskulin
ishak
angeles
skype
ketidaksepakat
whats
##rrrrrr
ambisius
springer
dominan
dominika
again
ateis
bsc
custodes
creative
dongeng
dream
ebony
furnitur
fundamental
funky
gaia
gubernur
gumpal
grafik
huyung
hampa
ilustrator
kongres
kambing
lonjak
mangsa
mukjizat
mitologi
myspace
micros
north
nathan
oxford
pitch
rintang
sitkom
volume
vokal
wifi
yahudi
yunus
zooming
##swer
##lisitas
sasha
intuisi
analogi
benedik
kardio
diagnosis
tiada
##emotivasi
kafir
rachel
prinsip
produser
pretty
mandek
arsitektur
rugby
doodle
douche
spoiler
split
spekulasi
imigran
america
peeps
churchill
glasgow
marshmallow
bridge
kolaborasi
juruselamat
crossfit
college
patriotisme
ekstensi
validitas
friends
backpacking
administrator
fenomena
wonderland
boston
cicip
century
cincang
dummies
dehidrasi
etape
egaliter
gentle
gapai
gravitasi
hamburger
hembus
hussein
itikad
jompo
jemaat
knight
kognitif
kibar
limpah
lloyd
literatur
mudder
megah
mormon
nugget
nganga
oatmeal
ongkos
pisang
poni
pokemon
rupee
rongga
rembes
rontok
ransel
sertifikat
sleep
slugging
stiker
sangkut
tsunami
titani
ugd
uhuru
vietnam
vitamin
vbac
vegetarian
vancouver
versus
victoria
width
wabah
winston
wushu
xanax
yeah
##nant
sally
segitiga
sejajar
disabilitas
disiplin
inspeksi
badass
andaseperti
betty
begini
becomes
oregon
karbohidrat
harmoni
paviliun
halloween
terowongan
terobos
keripik
adrenalin
kelabu
takhayul
majikan
kurikulum
progresif
pregnant
prematur
pragmatis
kesalahpahaman
selangkang
konversi
gelegak
artifisial
israel
indonesia
abstrak
turnamen
survei
menopause
menindaklanjuti
fotografer
navigasi
demonstrasi
reproduksi
ketidakhadir
ketidakbahagiaan
ketidaksabaran
malapetaka
estetika
shannon
shattered
infrastruktur
softball
epidural
gejolak
destruktif
wainwright
improvisasi
croissant
sweeney
stumbleupon
smoothie
cassandra
confession
philadelphia
shiraishi
ketidaksepakatan
microsoft
ao
ai
aw
aj
aar
aal
aid
ati
awa
amu
aud
aol
asi
ampat
atr
aub
atik
ater
aib
atar
acu
aug
afa
ayan
ayum
ativ
awar
ace
ats
acat
aoi
ajah
aven
acker
aorang
atribut
aiiii
aaaaaa
bc
bh
bm
bq
bik
beng
bup
bata
bleh
bong
bog
bont
batang
bomb
busi
bff
bill
bitter
bgr
bimbang
bumper
cp
cn
cb
cm
cx
cya
casa
cgi
cad
cena
cri
cos
cle
ciri
cet
citar
caj
cola
code
cla
cig
carin
clin
cond
cons
crim
call
cler
cbs
crick
cyn
craft
dp
dt
dc
dang
dal
ding
dus
dut
duh
dup
dos
dasi
dod
doh
dog
dsp
dorm
dest
doma
dall
domba
dps
dale
dkang
dakota
ew
eq
eas
eat
ein
eul
esa
eep
edi
esai
ewan
euan
etri
egan
estr
ehh
eco
ect
ecker
fu
fang
fas
fah
fid
fis
fut
fara
fuh
fel
fud
fet
fra
fug
ffa
feri
fma
fram
fall
futr
folik
foc
fbi
fft
ftw
fuch
fergi
farm
fps
fights
gs
gik
gus
gri
gos
gle
got
gend
gop
gala
gina
gris
gentar
galang
glik
gwi
gator
gase
gill
gfat
gorok
goth
gwen
gores
gambia
hp
hg
hb
hd
hw
hang
hat
hik
hih
hon
huh
halu
hud
hong
hep
hoh
hog
host
huru
hambar
hulu
holis
hori
hond
hans
haa
hail
hook
hood
hous
huck
hugh
hese
house
hrs
heheh
ig
ib
iw
iq
iya
iur
isa
ios
ica
iol
iter
iris
irc
iii
ible
iggy
jr
jz
jasa
jos
jama
jol
jong
jem
jia
jamb
jarah
jonal
jangk
jatah
jingk
jender
jov
jeo
jeda
jins
jake
jedi
jcho
jtw
jdel
junge
jhb
jumper
kj
kx
kang
kik
kad
kut
kum
kuh
kod
kisi
kanc
kina
kano
katal
kiat
kly
klan
kill
kado
kodi
kincir
kini
kupon
kyuh
lp
lt
lr
ls
lv
leng
lena
luh
lup
liri
larang
ltr
ludah
lend
lank
low
lola
lulu
lash
limb
lush
lord
lose
lunge
lights
mg
mm
md
mx
mik
mda
mih
mek
mika
mri
mara
misa
mca
mba
mia
meh
mira
mangk
mekan
more
mimb
mosh
membung
mangkuk
mbour
nt
nh
nl
nw
nv
nat
nah
nun
nir
nuh
nana
nud
nok
ned
nakah
nanc
nano
nig
noo
nash
nou
noth
night
naman
nord
nissan
nemo
npr
nfl
nellie
nepal
od
oil
ole
ofa
oce
outr
oogle
oven
ode
odon
owen
oops
py
palu
pata
pod
pia
pog
pemb
pomp
papas
pts
pne
powers
paria
plein
qq
qaf
quan
rt
rh
rl
rf
rv
rid
ris
rih
rul
ron
reka
rmb
rana
rasi
rita
rua
rand
retak
rital
rye
radar
rise
random
riku
rida
rose
rotasi
sd
sx
sq
sri
siri
skan
sci
stim
skat
swal
sila
sisik
scar
sme
sma
sunyi
syal
squ
sosis
sith
simb
silau
scape
tt
tk
tm
tap
tis
tapa
thir
tog
tna
tins
tbr
tosh
tdy
towers
tpt
toward
uv
utah
ugan
ute
ugh
uea
uuu
ufc
vm
vj
ven
vent
von
vel
vip
veri
voi
vell
vegas
vonis
vine
voc
vein
vlog
ventilasi
vuit
wp
wr
wu
wd
ww
wya
wen
wat
wap
wih
wit
wus
wel
wes
wasi
wot
wod
wimp
wina
walia
wern
wimb
wine
waaaa
water
woooo
where
wiki
wolf
wendy
xs
xb
xm
xang
xia
xers
xela
xox
xellie
yar
yin
yup
yog
yip
yiling
yhh
yosh
yuck
yix
zz
zq
zap
zara
zip
zic
zonis
zine
zuc
zoll
zambia
##pp
##pu
##pm
##pal
##pid
##pih
##pad
##pri
##pes
##pati
##pman
##pem
##pet
##penting
##pop
##pensi
##pla
##pela
##pie
##pton
##pee
##pret
##play
##pula
##pio
##ao
##aun
##aut
##aud
##ace
##ayal
##avi
##tg
##tn
##tb
##tv
##twa
##tentang
##tender
##tons
##tologi
##tcon
##tless
##ru
##rk
##rasa
##rer
##rin
##rik
##rid
##rap
##rad
##rel
##rman
##rok
##ramb
##rug
##rambut
##ratis
##rill
##ress
##ramatis
##ritab
##rino
##rose
##rkl
##raps
##reme
##rgr
##runch
##gm
##gara
##gana
##gos
##gle
##gong
##gra
##gonal
##gambar
##gani
##gender
##gret
##gonis
##gory
##gsaw
##grew
##eak
##eur
##egi
##eul
##eon
##eut
##eong
##egal
##eom
##ejut
##ewan
##ech
##eck
##ece
##eath
##oe
##oan
##oen
##oin
##oti
##oit
##oja
##okin
##oua
##ober
##obil
##oasia
##oqu
##oula
##oater
##oose
##oque
##oaks
##oeless
##nc
##nak
##nika
##nos
##nasi
##nama
##nog
##nab
##neg
##nanc
##nyak
##nob
##nth
##nell
##nosis
##noc
##nings
##neling
##nals
##nepal
##nifer
##uv
##uah
##uti
##uga
##uad
##upa
##uanya
##uba
##uet
##uju
##uji
##umum
##uie
##uyut
##uuper
##sc
##sv
##sas
##sak
##sin
##sik
##sih
##sing
##sim
##sum
##sami
##sol
##sem
##sudah
##som
##ski
##semb
##sulit
##sila
##sten
##sla
##src
##scap
##sty
##ssh
##stal
##sell
##sou
##sby
##simen
##sto
##sley
##syat
##sque
##space
##shire
##sance
##iya
##itu
##ica
##iba
##icah
##ice
##ientasi
##izz
##itum
##ielle
##iggy
##igans
##iopia
##yw
##yv
##yen
##yin
##yik
##yon
##yenang
##yet
##ynya
##yomi
##you
##ype
##yosh
##yvi
##ycho
##yhe
##yhur
##cs
##cen
##cal
##cis
##cuk
##cup
##col
##camp
##cci
##cre
##casar
##cch
##cers
##comp
##cond
##cey
##cob
##cons
##cys
##case
##cess
##cson
##ctic
##cles
##ction
##cale
##caria
##ckie
##craft
##cript
##cnepal
##ko
##ky
##kh
##kal
##kuk
##kus
##kor
##kman
##kep
##keh
##kab
##kris
##kll
##kond
##key
##kota
##kry
##kade
##ksh
##kega
##kongan
##kenal
##kular
##ho
##hu
##hang
##hat
##hal
##hit
##him
##hum
##hai
##hos
##hia
##hilang
##hisme
##hens
##hef
##hous
##hings
##hound
##hora
##house
##hdf
##hores
##lon
##lika
##los
##lasi
##luar
##lihat
##lot
##lok
##lanta
##lip
##lers
##libat
##lov
##late
##lrat
##lds
##list
##lvan
##llac
##larasi
##lhia
##bf
##bj
##btu
##bir
##bul
##bung
##bon
##but
##bes
##bud
##bot
##beb
##bna
##bip
##bani
##bris
##bolis
##book
##bys
##blan
##base
##bitter
##bike
##brut
##btw
##bdv
##fo
##fs
##fj
##fak
##fis
##fil
##fwa
##fur
##fus
##ful
##fre
##fter
##fib
##fina
##fore
##fiksi
##fell
##fish
##figh
##foc
##fper
##fare
##foria
##from
##fool
##mw
##mv
##mak
##mid
##mda
##mir
##mari
##mil
##ming
##mus
##mana
##mel
##mai
##mos
##mati
##masih
##mom
##meg
##more
##mie
##mys
##monis
##make
##mart
##meter
##mesan
##mkll
##do
##dj
##dal
##dit
##dul
##dent
##deka
##duh
##dana
##des
##dman
##dot
##ditas
##donal
##dengan
##dly
##dka
##dys
##dens
##dish
##dosis
##ddy
##dora
##doll
##door
##dunia
##demotivasi
##dplay
##drug
##dmore
##wd
##wer
##wara
##wira
##wala
##wins
##with
##washington
##woon
##wfd
##wolf
##wendy
##vo
##vasa
##vat
##vent
##vot
##via
##ved
##vest
##video
##vase
##vens
##vag
##vii
##vsen
##vation
##vour
##veball
##vary
##vrk
##vsv
##jx
##jasa
##jen
##jap
##jit
##jara
##jamb
##job
##jadil
##jour
##jhe
##jadid
##jeong
##jlok
##zs
##zer
##zap
##zad
##zon
##zim
##zos
##zep
##zog
##zab
##zont
##zof
##zone
##zema
##zmur
##xy
##xah
##xing
##xia
##xie
##xtail
##xfib
##qah
##qlhia
##any
##aner
##anes
##ania
##antas
##antur
##anys
##aness
##anity
##antom
##anistan
##anteri
##antidak
##anmed
##anbag
##anberry
sai
say
said
saun
sail
samu
sari
samb
saba
sare
sach
sawah
sage
saving
sajat
satwa
savour
##yalah
##yasa
##yasi
##yavi
##yashi
##yasem
sayat
sayadi
sayaakan
sayatel
sayasek
sayatidak
sayasand
sayameng
sayamerasa
##ange
##angy
##anggi
##angad
##anges
##anggo
##anggap
##angmai
##asan
##assi
##asons
##astian
##asbour
##asoula
##assing
##askular
##aro
##ars
##aris
##aring
##arana
##ares
##arki
##artis
##aritas
##arch
##arma
##arte
##arty
##aristi
##arding
##arsh
##arto
##arpe
##armon
##argumen
##arella
##arning
##arfer
##arwendy
##asaya
##asaat
##eno
##enn
##ener
##enam
##enda
##enta
##enci
##enjar
##entif
##ench
##enani
##enatal
##ence
##enity
##enfre
##atid
##atel
##ates
##atasi
##atsi
##atua
##ateg
##attle
##atto
##atown
##atkannya
##atria
rasakan
##aho
##ahal
##aham
##ahha
##ahzad
##akami
##aktur
##aktor
##akjub
##aksek
##akness
##erasa
##eren
##erer
##erid
##ering
##erja
##ercaya
##erji
##eriksa
##erce
##ermin
##erry
##eroi
##erous
##ergen
##eristik
##erque
##erbar
##erella
##erbaik
##ertine
##erkega
##ermake
##erjen
##erarki
##ald
##alik
##alent
##alel
##alol
##alom
##alsu
##alow
##ality
##alors
##alihan
##alvag
sean
seman
seth
setel
selub
seven
second
sexah
seasons
seattle
##tua
##tun
##ture
##tuju
##tutus
##tude
##tubasi
##tucky
##tudent
danduk
danny
dansaya
danmur
daniel
danpenting
dannika
danielle
dancamp
##int
##inn
##inar
##inen
##inat
##inari
##inek
##ined
##ineb
##inyak
##inium
##innya
##inalitas
##inys
##intin
##inase
##inkar
##inbe
##inbo
##ineral
##inks
##inity
##inyur
##inyam
##inmak
##inyasi
##intubasi
##ikar
##ikal
##ikon
##ikut
##ikoh
##iktif
##ikota
##ikator
##ikilik
##ikmati
##idu
##idas
##idung
##idep
##idia
##idensi
##idgen
##apah
##apad
##apent
##apub
##apakah
##aptif
##aproduk
##apesh
##apeno
##apatkannya
tidakter
tidakka
tidakmasalah
tidakmerasa
tidakcob
##amar
##amik
##ameng
##amel
##amasih
##amok
##amemb
##ampai
##amcul
##amnya
##amide
##amford
##ammed
digg
diemb
ditt
disp
diban
ditle
diare
dihisap
dianne
dickin
difl
ditutus
keti
kelah
keita
keep
kejang
keingin
keban
keder
keith
keyn
kevin
keiko
kegy
kekeh
kehilang
kejap
tea
tec
tewas
tegak
teologis
inap
inisi
inses
incar
inov
inher
inline
inrip
input
incor
inovasi
incest
inlove
innoc
##dae
##dav
##daun
##dage
##days
##daish
##unal
##untu
##unmb
##uncing
##unty
##unner
##unikmati
##engsara
##enggara
##engejut
##ison
##isalah
##isman
##isba
##istr
##ister
##istis
##issp
##isator
##ismen
##isins
##issor
##isper
##issw
##isdari
##issance
ungu
undi
unib
untri
unsung
unfor
unfin
unduh
##ihu
##ihim
##iharu
##iru
##irs
##irl
##ird
##irut
##irem
##iree
##irado
##irls
##irrrrrrr
untuknya
##tier
##tiel
##tice
##ticip
##timate
##tigrew
akta
akek
akum
aktr
aktualitas
aksila
##uke
##uku
##uks
##ukung
##ukses
##ukans
##ukansi
bail
baba
bagan
baff
baach
badut
##angatnya
##itt
##ite
##ito
##itys
##itout
##itec
##ittney
##itrose
##ariya
##arious
##arifikasi
##ilu
##illah
##ilasi
##illi
##ilne
##ilee
##ilepsi
##ilart
##ilorder
##iltn
##ilalihan
baht
##ingan
##ingak
##ingstr
##ingbe
##inghere
ano
ann
anta
anut
ansi
andar
anip
anch
ancang
andang
anest
anansi
anyam
anonim
anotasi
anothers
answer
anjlok
##way
##wait
##waff
##wagon
##wayat
##urt
##urs
##ury
##url
##uras
##urit
##ures
##uruar
##uritas
##urcho
##urette
##urbon
##gau
##gail
##gagal
leo
lev
lex
leap
leon
lees
legal
lett
legar
lesung
leers
levi
leks
leanne
leurge
legana
learning
##gional
##give
##giatasi
##adak
##adalah
##aded
##adengan
##adry
##adsh
##adhan
##adston
##adenfre
##aderistik
##adiktif
##adaptif
benih
bentr
bentur
benson
benny
benno
beneath
benzema
benadry
been
becu
beth
befc
beyon
before
bewer
bezos
beanbag
beirut
##uska
##ustus
##ussion
sepang
sephora
##tau
##tain
##taul
##tains
##tabel
##table
##tagonis
iturah
itusaya
ituker
itudia
itubek
itucuk
itumasih
ituener
##pay
##pays
##pagn
##paikan
##anyasaya
ora
orci
orth
orland
orkes
orleans
orientasi
orcis
orihim
##uld
##ulir
##ultas
##ulter
##ulated
##ulsur
##ulfield
##ekin
##ekend
##ektor
##eksual
##ekkaj
orangorang
orangsaat
benarperasaan
benarpela
benarumum
karin
karun
karua
karapas
karma
karikat
karmar
karunia
kardash
karpet
karcen
karamel
##sago
##saikan
##sava
##sabtu
perak
perek
perung
perisa
perata
pereg
persu
perban
pernis
perry
pernik
pernak
percol
perdana
perwira
##uatudi
##uatsaya
##entris
##ently
##entech
##ungan
##unges
##ungous
akanja
akanjadil
##onik
##onga
##oners
##onoma
##onation
##onked
##onio
##onomis
##onaris
##uto
##uten
##uters
##utdari
hart
harisa
harve
harmonis
harvest
##adia
##adiator
senar
senpai
senand
senegal
dariapa
##much
lebur
##rian
##riah
##riet
##riag
##riart
##riella
##rieve
##rigle
merdu
merson
merinci
meroman
merpati
merdeka
mertua
##araan
##arazz
##aravi
##imia
##imbu
##imakan
##imaks
##imerasa
##imengejut
##imistis
merekaep
merekabf
ingrid
##umi
##umbia
##umonia
##umbna
##uminium
paut
paja
pauli
pagar
paig
paget
paella
paaker
dalamintin
##uhbe
##uhere
lax
lada
lauk
laet
labuh
laura
lacon
layu
lava
lajo
lavig
lauper
laiya
lazim
tentangdia
tentanghal
##upuk
##upte
##upke
##upose
##upst
##update
##mbasa
##mbab
lake
lakban
lakukans
haloh
halses
haley
seka
sekop
sektor
sekund
sekret
seksualitas
teras
terpa
terentang
terry
terror
terseb
terompet
terdemotivasi
ketakut
ketidung
mill
miles
milig
milly
miller
mills
milksh
milonga
##elim
##elia
##eldi
##eleb
##elers
##elie
##elius
##elakuk
##elms
##elmed
##elstrom
##elho
##elmeg
##elantur
ataunikmati
diabaik
diagonal
diazep
##esis
##esta
##esama
##esca
##esimen
##estern
##esley
##esfrom
##mpy
##mpff
baikber
baikmen
baiktidak
baiksele
baikdunia
##jaja
##orf
##orah
##oris
##orld
##orpio
##orbani
##aight
##aigret
apaya
apawa
bio
bias
biak
biok
biow
biopsi
biologis
bioch
bical
##alias
##aliad
##alion
##alifa
##alice
##alight
##osong
##ostr
##osom
##ostrator
##osdv
##osurge
##osesan
##osmos
##osentris
pikul
dapatkang
##atic
##atibel
##atitude
adab
kerak
kerong
kerry
keriting
keroua
kerjasa
keramik
kerupuk
sedikitag
sedikitpem
ade
adn
adf
adida
adras
adams
advent
semuaitu
##asif
##led
##lex
##lelah
##leon
##leand
##leyan
##leth
##leys
##lebe
##lewis
##letion
##leapp
##ledon
##leberry
##mani
##manjak
##mandang
##udons
##udrive
##udoir
##udru
beres
berger
berikan
bernie
beranda
bercum
bertram
berbud
berantas
berikut
bebuyut
##ukainyak
##gues
##gujeong
adalahla
same
saatsabtu
##itain
##itabilitas
sendiripe
sesuatudi
##cab
##caf
hidrasi
hideak
##olas
##olum
##olaf
##olate
##olph
##olous
##olation
##olls
##olitan
juara
jubah
jugra
belle
belikan
belling
belmont
beluga
beludru
kelingk
kelela
kelsey
kelereng
kelamin
kelenjar
keliru
##kanlalu
##kanoff
##kannyak
tiang
tiff
tics
tibris
sii
six
sigh
sizz
sigil
sigani
siesta
ala
alan
alba
alot
alab
alib
albu
alli
alian
alig
alton
alph
alham
alva
alene
alise
almar
alfr
also
alcest
always
alergen
aluminium
##bawa
##bajing
##baird
lainorang
mungil
maki
makmur
kecut
panen
panji
panorm
pancar
panth
pandora
pantau
mulus
mulli
multitas
mulatto
##siapa
##sied
##otot
##otfa
##otous
##otlandia
##oterapi
##amps
take
takea
kamiakan
##oks
##oken
##okis
##okol
##okrasi
##oknow
##okratis
satusiapa
age
agresi
agtal
agens
agnos
agustus
punuk
jalop
jalapeno
##ongyang
##emik
##emus
##emian
##emium
##emix
##emaking
##emineral
##emistr
##emukansi
##emesis
tubel
tucson
tubrut
##odan
##odis
##odes
##odia
##odanc
##odesh
##odramatis
##eplay
##eponakan
cukai
##gall
##galene
lagipula
tings
lamaanggo
masam
masakan
jag
jaw
jajak
jays
javas
jaery
jajaja
serut
serasi
serep
seremp
serag
server
serbet
serpih
seroqu
serenity
##iavel
maya
mach
mack
magang
mawar
macan
magn
macho
maeve
mazmur
mailorder
maury
maelstrom
bard
barca
barry
barbe
barbi
barker
barbek
bartender
baroque
barnog
baremineral
tuli
tulip
coo
cox
coca
coving
comm
cohen
cooper
copp
coeur
cohens
county
copay
coulter
coelho
coolum
##tru
##trum
##trop
##trag
##trated
##trude
##troit
##tralight
tandan
tanduk
semir
semangka
semipro
semanggi
seminar
buram
burme
burkie
burgos
enma
ending
enuff
encomp
enjamb
##inder
##industri
##indlers
belumlu
begitulelah
##cial
##ciitis
##cifish
##ciatic
##enden
##endon
##endol
##endarfer
##tasting
kairi
kawan
kaikoh
guntur
gundu
rawa
raut
rajuk
rafa
rays
rayu
ravi
rabi
raini
rajal
rainbo
##ambung
##ambuie
##ambilalihan
##oho
kurator
kuriba
bani
banci
bantah
##eha
##ehr
##ehter
##ehner
##ehehe
##ehouse
praj
prapas
pregan
pray
preku
prandi
prenatal
prupose
prelim
premium
bahkanmeng
##omy
##omer
##omet
##omecomm
##ominen
##omosom
##arahwaktu
mandar
manjur
mandir
mancur
manuch
mansion
manuf
manitz
manirado
##ets
##etin
##eting
##etika
##etisi
##etto
##etsal
##ethis
##etaria
##etpla
nyaris
kitab
##ede
##edy
##eden
##edisi
##edian
##ederhana
##edral
##eddy
##edtre
##edoll
##edonia
##edoger
##eduanya
##edwith
##editout
kesatria
kesengsara
sajawaktu
sajaargumen
best
##ogami
##ogger
##ogne
##ograp
##ubne
##ubout
##ubron
##ubhi
##ubanes
##ubilee
##die
##dial
##diff
past
pasca
pascasar
##abad
##abet
##abilly
marahtentang
selia
selanc
seleksi
selendang
selenggara
konter
konduk
konotasi
konifer
burukapa
besardi
makanenam
sins
sinis
sinode
sinisme
sinemat
sinyal
sinkr
sintet
sinonim
sinambung
##reas
##reasi
##regory
##reamcul
##readsh
kasihupdate
dao
day
daur
dagu
daugh
daven
daiki
dazs
rumus
apc
apik
apra
apenda
apostr
apgujeong
##jaran
##jaringan
##ggle
##ggard
##gginnya
prius
prima
primi
priva
priamasih
geliat
geladak
blur
blus
blip
blender
bloss
bloater
blaness
blares
mesir
mesian
mesmer
khi
khez
khayal
kharto
khatsi
khalifa
tangis
tangkar
tangkal
##ters
##terkenal
##terlibat
##termil
arya
arun
arena
arung
arra
arma
arte
arty
arsen
arist
arugh
around
arke
arrow
arlov
ardmore
arvo
armani
masch
mastur
massou
masyhur
masokis
palang
palin
palceb
##ibus
##ibalol
##utuhkannyak
bodega
bodyp
bodyw
sebulans
sebelum
sebuah
sebastian
##ision
jelly
##egen
##egle
##timun
##times
##timasi
##timore
##buzz
##buuntuk
##bujit
musnah
meskipun
istan
isma
isob
isyarat
isms
ispri
cerca
cerew
cerits
##opgang
##opath
##opanan
dukes
luen
luft
emm
emma
emty
emotik
emote
emilli
depo
depart
depresan
##ontin
##ontis
ganging
##tise
##tisasi
##tisida
bukankah
horsey
menangani
menangisdari
mengingin
mengger
menggar
mengikat
mengatur
mengintubasi
##ttji
##tthef
##ttoknow
sekalipun
##spot
##sphere
##katch
dunham
dunsta
##ebuk
##eband
##ebook
##eblo
##ebef
##ebox
##ebalm
##eborder
##eberry
##ebelie
hasan
hasut
hasting
tunjang
tunji
tungau
duniauntuk
tarun
tartle
##suf
bull
bully
bulls
buletin
##rain
##raid
##raven
##rawala
blogov
blogland
blogstal
blogspot
##juga
tampon
kemudiansik
rue
ruam
rufus
struff
strain
strober
strasbour
strateg
straight
select
henyp
henriet
indy
induk
indide
induksi
##yangregory
gaga
gagang
gawd
httpen
rindang
pakan
##nagall
reid
reel
reed
retur
reail
rece
reye
revis
reese
revalidasi
reaktif
reved
reaktor
reinkar
regional
reuters
pilot
pileon
pilates
kepang
kepung
keparat
kepiting
canon
dudley
hubby
waning
wanted
wanatri
maine
singa
single
##tart
##tars
##tarts
sedangsudah
khawatirsaya
uban
ubuntu
habaner
##cuali
##cuito
bug
buy
buti
buai
buzz
buuu
build
siku
##ancamnya
pedal
pedih
pediat
pedoman
asd
asin
aster
asma
asorang
asbak
assemb
asyik
asbes
asasoula
asciatic
jamah
jamak
jamur
jamba
tenge
tengkor
stresor
suap
suda
suaka
suuuper
suominen
suede
##yica
pedulijam
kenya
kening
kenapa
kenyal
kentucky
niko
nikos
nikolas
masukla
masuksaat
gading
cantikdan
binging
binges
pinus
pines
pintas
pinew
meath
meals
metier
memanjak
metrop
meeting
gere
geram
geryang
geromb
gerisik
gerhana
gerding
geryam
gervase
gertrude
pahat
tenda
tenis
##rusco
abrah
abbi
absur
absta
aborsi
absol
murt
mural
murua
murrel
murakami
angguh
koma
komisi
komuter
komedian
ikal
kamen
kamus
kamiki
balm
balon
baltik
balsami
baltimore
koin
kook
kocok
koyama
koinfeksi
kooper
moe
moz
moda
moon
move
moff
mozz
moosh
moose
mouth
moanda
mount
mousse
mounts
moxie
moriart
mombasa
simpson
simpleth
manisdi
manisadalah
##ajide
##ajeul
##ajubilee
##ippy
##iperiksa
usd
usak
usuk
used
usarious
deke
dekomp
deklarasi
pula
pulung